1111100110001000
0000011000100111
0000011010111011
0000010111100010
1111111101010010
1111111010111001
1110110000011101
0000101100101010
0000101110000111
0000100101001101
0000010111110010
0000101001111001
0001101000001100
0000011111101000
1111111101111110
1111101111001000
0000111001101010
0000111010000001
0000101000011000
1110111111011010
1111001010110001
1111011011101111
0000001100001010
1111110001011000
0000101001100111
1111100110000101
0000010111010100
0000000110101111
0000010110010100
0001000011000001
0000100111101101
0000010101101001
1111100010110111
0000001100011001
0000110001100000
0000010011110011
0001001010110011
0000000111101000
0000011000011000
0000001001001101
0001011011000101
0000011010111111
0000010010100111
0000100111001101
0001010000011010
0000100111111101
1111110000001101
0000100100100100
0000001010001001
0000000011110011
0001001101110100
0000100000100011
1111001111010100
0000000001101001
0000010011100111
1111111110100100
1111010100101110
1110110110010010
0000010001100100
1111111111100111
1111100010010101
0000101001011001
0000001000010110
0000011111111100
0010001011110101
0000001100000001
0000101010111001
0001000110011010
0000100010110110
0000101111101010
1111110011000000
0000011011001101
0000001100110001
0001101110100011
0001000001000011
0000101100011011
0000001001000110
1111101110100101
0000111110001111
0000111100100000
0000101101011101
1111111101000011
0000010110101000
0001011001110101
0000101011110010
0000010000100100
0000011010100001
0000010110010100
0001000011001000
0000110100111100
0000100010101110
0001010100100010
1111011001110111
0000011101111111
0000001100101000
0000011000001101
0001010001100000
1111010000100010
0000011110111001
0001000110111001
0000011001100100
1111101001001010
1111111010000001
0000111000101001
0000111101101101
0000011010100001
0000000100010000
0000010111110110
0000010111010110
1111100011010000
0000111100000101
1111100001110101
0000011100111111
0000010100110111
0000111001010111
0001010110000010
0000100000001110
1111101011111111
1111101010010101
0000110111011110
0000001100001001
1111101000100000
0000101011110100
0000000000010110
0000001111101000
1111100011110010
0001000001111101
0000100010010000
1111101011001010
0000101011000111
0000001000101101
0001011100010111
0000111010110011
1111101000011101
0001001111100100
0000101101001101
0000100011100001
0001010010111011
1110011111011001
0000010010011010
0000010110111110
0000011010011000
1111011111111000
0000000010111111
0000000111011000
1111111000110001
0000110010110011
0001110100101011
0000100001100000
1111101001111001
1111011001100000
0000100010001001
1111011111010000
0000101111100010
1110010011011100
1111111001000000
1111101001001111
0000000000110010
0000010011110111
0001000010101010
0000000010110000
0000110000011011
1111101101001010
0000111011110011
0000101101000110
1111111010000001
0000110101110111
0000011010000110
1111110100010101
0000000001110110
0001000111111100
1111101101010011
0000010111101011
0000001110111101
0000110010000111
0000011100101100
0000110111111010
0000001011011101
0000111101110001
0000100110111010
1111111111100110
1110111000000011
0000110010101110
0000010111100111
0000000010101110
1111101011100010
0001000110010011
0000001011001101
0000110000010100
1111101001010000
0000011010001101
0000001100010010
1111100000101111
0000000111000110
0000000110111011
1111110110101001
0000001100000011
1110111011001111
0001000001101011
0000000010000111
0000110101000010
0000111001011111
0000001000101110
1111100100110010
0001000101111111
0010000001011010
0000001001000010
0000111001110101
0000100011011001
0000011001111001
0000011001110111
0000101100110011
1111111110000011
0001001011110001
0000000001101101
1111110001011011
1111111110100110
0000010011110010
0000111101110100
0001010000011111
0000001000011011
0000111000010000
0001011111101001
1111101001000110
0000010001111110
0000010001101101
1111101101111110
1111010101100001
1111000010011101
0000111110001110
0000001110101000
0000101100000001
0000100010010011
0000001111010101
1111101001000110
0000101111011000
0001000011101000
0001111000110110
0000001010111011
0000000000000101
0010001100001011
0000011100111101
0001000101001011
1111000011000111
0000010111100011
0000010010011101
1111110101110111
0000100101001100
1111110100100110
0001010010000010
0000110101111110
1111010101010011
0001011001111100
0001011011000010
0000010000000000
0000000110101101
1111111100010001
0001110100010001
0000111110101010
0000000010001101
1111101101110000
1111011001011011
0000001101100001
0000001110010011
0000000010111011
0000100010010010
1111011100110111
0000101101101110
1111110111111001
1111000110011111
0000011110101101
0000001001011111
0000010110111011
0000010111100111
0000101011000011
0001001000011100
0001100101010010
0001101011000101
0000100000101101
0000001111001001
0000100010111111
0001010101010010
1111110110111010
0001001110011110
0001100010100111
0001100110011110
0001000011110010
0000010001010111
0000001010011001
0000001000000010
1111010101100001
0000101110001000
1111110100011110
0001100001110001
0000010000100110
0001000110101000
0000101000001110
0001000110110000
0000110101011010
0000000011101110
0000010111101111
0000011010010001
1111001001011011
1111110101011100
1111111000000100
0001110100101010
0000010011001010
0000011010001010
0000110110111001
0000100000001111
0000101100011001
0000101111110100
0001100101010001
1111110110000011
1111011100110100
1111110001101110
0000101000001100
1111110110100111
0000011100000010
0000111001001100
0000111111000101
0001010111000001
0000011001001101
1111101100011101
0001100010101111
0000111100011010
0000000010100111
0000100000100011
0000011001111110
0000101010010111
0000100111000001
0000100000110001
1111111110000101
0001000011011101
0000001011100111
1111010100101010
0000011100110001
1111110100100011
0000100100011010
0001100110000011
0001000110111000
0000101111010010
1111000110000111
0000101000011011
0000010110101011
1111010011110011
0000011001111111
0001000010100001
1111110110001010
0000100011100000
1111111010111110
0000000101011111
0000010111101100
1111001110111010
1111101100111111
0000001111000011
0000000111100011
1111100101001010
0000100111111000
0000100100100100
0000010110110010
0001110001010001
0001000110100001
0000111010000001
0000111100100011
1111010100111011
1111100000001011
1111110001011111
1111100000110010
0001010101000010
0001001000100101
0000101111001110
0001000110010111
1111111111110001
0000110111111101
0001010111000001
0000100101111100
0000011111001101
0001000000011110
0000110010111110
1111010101010111
0000101111000110
0000000010000011
0001001010111000
1111110010000000
1110110001010000
1111011100111101
0000001010011100
0000010101110010
0000010101000100
0001001111111010
1111111001110011
0001000001110101
1111110111101110
0000111100111100
0000000111100100
0001110011100010
1111101000010011
0000011101010100
0000000101100100
0000100111101101
0000011111000000
0001100111111101
0000011001001101
0000101010001110
1111110000000000
0000011011010001
1111101111011101
0001000101000011
1111010101100111
1111010111001101
0000000111111100
0000110001000101
1111001011000011
1111111101000101
0000110011110001
0000011100101000
0000100100010110
1111010101000000
0001001011001011
0000110110010000
0000111001010011
0000000000111110
0000110110011110
0000000111011110
0000001110100010
0000000011100100
0000010110101010
0000001101111111
1111111010000101
0001010110000011
0000001010111110
1111110110001001
0000111100101110
1111000101010011
0001100111010010
0000000001111101
0000010000000010
0001010010111010
1111001010100110
0000100110101111
0000000110001000
1111110000010111
1111101010110010
0000111011011110
1111111111101000
0001000010001010
1111011010100101
0000001110111111
0000010010101110
0000001001110010
0001000101011100
0000100001100110
0000111011001000
0000001010110111
0000101000001001
0000100101100001
1111011111001001
0000110110001111
0000110010001011
0000010000000001
1111111100011000
1111110000000111
0000011011001111
0000001111010001
0000100010111000
0000010110101110
0000000101100011
0000000011001011
0000111100110000
0000001100010111
1111100011001001
0000111100011010
1111010111110010
0001000100101100
0000000011100001
0000000010011011
0000111001001001
0000011010011001
1111110101101000
0000110110010100
0000010001001111
0000011001011011
1111110011011001
1111111101111010
0000010001111101
1111111010001001
0000111000010011
0000110001111110
1111111000001101
0001110011101111
0000000001000011
0001000010111001
0001011110101010
1111111110011110
0001001110011010
0001011101001101
0000000101011101
1111110001000010
0000001000101101
0000010001110001
1111111100111111
1111110111100110
0000101110010010
0001001110001000
1111110011011000
0001010111011101
1111101001100001
0000000100000101
1111100101110111
0000100111000010
1111111001110001
