1111110011101101
0000010101010010
1111010100010001
0000011001100100
1111110100101001
1111111001111101
1111010001010100
0000100111111000
0000100001110101
1111101101000001
0000010001110000
1111111001011111
0000111111111010
0001000001000110
1111101001110101
0000010100100110
1111110101101011
1111100111010110
0000101001000010
1111110010111110
1111110111000000
0000000001110000
0000001001001110
0000110100010011
1111110010010010
1111010011001011
1111111100100011
1111100000011001
0000011001000100
1111100111010111
0000110011101101
1111010010000101
0000010111001111
0000000110011101
0000100000000110
1111110001111010
0000010010011001
1111110101100011
1111111101101101
0000001001110110
0001001011000011
1111111111101111
1111101001011101
1111111111001010
0001100111100010
0000001010010110
1111100000101001
0000001100110011
0000011001110011
0000010101111111
0000011010000010
0000010001000101
1111110011110100
0000000110111000
1111101101001100
1111110000110010
1111100011001011
0000001000100110
0000100011000101
0001000010100101
0000100011110010
1111101001000111
0000010000001000
1111110001101100
1111110111110100
1111111111011000
0000110111011101
0000011000111010
0001001100110110
1111001010011110
1111011111110100
1111010111110001
1111111100001111
0000000000110100
0001000001001000
1111001011100011
1111011000111010
1111101111100001
0000100111100011
1111110010010001
1111101001110110
1111101100101011
1111100010101101
0000100010110111
1111110101010110
1111110001101110
1110111000100101
1111000110110011
1111111011100010
0000001100011101
1111110000111101
0000110001111111
1111001110111100
1111111001010101
0000001001000110
0000110010001100
0001000010111110
0000010000001111
1111111001111100
0000010010010001
0000000001011110
0000001011000001
0000010010011011
0000101111000111
0000110001101100
0000000011100110
1111101100100001
0000100110110001
1111101000111010
0000001011000000
0000110001101010
1111001011001001
0000111011001110
1111100001001001
1111110010101000
0000010100101000
0000001101010101
1111010101111011
1111111111110100
1111011100100100
0000011001001001
1111110000101110
1111100010111011
0000010110010111
1111111100011010
1111010110010011
0000101010010010
0000011010111001
1111101111111000
1111111001101101
1111110000001110
1111111011111101
0001011011011001
0000001001001101
1111001101101001
1111110000101111
0001101101110100
0000101110011110
1111111011000001
1111101101100000
1111010111000000
1111000001111000
0001101111100001
0000110000100000
0000000000000110
0000010000010111
0000001100000111
0000011011101011
1111100010100111
0000010001000011
0000110111100100
1111101011010001
0000000101110011
1111011111011101
1111011100011010
0000011111111010
1111011011101010
0000100110011011
0000001001010011
0000101000010010
0001000110001010
0000001000010111
0000011010100101
0001100101101000
1111101010100111
1111100100110001
1111111100110111
1111010101111110
0000010100101000
0000000111100000
0000010011101010
1111110000111100
0000101110100111
0000100001100110
0000000111011110
1111101011111110
0000000100100000
0000111110101000
0000100010011110
1111101001100001
0000100101001110
0000101100111001
0000111101001100
1111111010001011
0001100101101000
1111101011011100
0001000100011000
0000000101101011
1111111000100100
0000101010100111
0000011010111010
1111011011111100
0000000101001111
1110110101011100
0000011010000111
1111111111101001
1111101111000100
1111100101010111
0000111001011111
0000100110111111
0000001110111001
0000100010101100
1111110110110010
1111011110011000
0000110001111011
0001011100100110
0000010000100010
1111101011100010
0000010101001011
1110111111110001
0000100011100101
1111011011011010
1111100011111101
0000111100010101
0000011011010101
0000110001111100
0001100101101011
1111011111001000
0000010100000111
0000010000111111
0000001011001011
1111101111101001
0000010111010101
1111011000100100
0000110001101001
1111111110010101
0000010001111100
0000010100010010
1111100101010001
0000101010111101
1111001010001110
0000001101101001
1111110010100101
1111010011011001
0000001000001101
0000001010010000
0000001101101011
1111111101000010
1111111010101111
0000001101010001
1111101100011111
0001001010110000
1111011010010110
1111011001011110
0000000100101011
0000011001101110
0000000000000100
1111100110000110
0000111011101101
1111110011110010
0000111111111000
1111010010110111
0000100100000101
0000001111111111
0000000100000011
1111110100111110
1111110111010000
0000000101010000
1111111101111011
0000001110000101
1110111101010010
1111001110001001
0000011111011100
0000011110011111
1111111010001101
0000010001000110
0000010011010110
1111101110000010
0000110101100100
1111110011111000
1111001111100100
1111110011001000
0001101111110001
0001000110110100
1111101000000000
0001001011110001
0000000100100111
0000001101110111
0000010111011000
1111111010110000
1111111100011100
0001011101110110
0001001100010011
0000011000110111
0000010000010110
0000101010000000
0010101010101101
0000010010001111
0000001101100100
0000000011110111
1111101101101001
0000110010010000
0000011000101101
1111101101110001
0000010011111101
0000000011010001
0000010010111010
0000010001000000
1111010110111001
1111001101111111
1111101101000011
0000011011100011
0000000011011011
1111100100011001
1111110111000011
0001010100000100
0000000001100110
0000011100100010
1111111100010001
1111001111011011
1111010101000100
0001000010101111
1111110100100100
0000101010101110
0001001101101001
0000010010010101
1111110101111001
0000111101001110
0001111000001011
0000110100000011
0000101101111010
0000101001101110
0000011110111001
0000011110110110
0000100011011010
0000011100111100
0000000010010011
1111110110000110
0000010101101010
0000010111101001
0001001000011011
0000010100000101
0001011010011100
0000001100010000
1111101110111111
0000011010010010
1111101100100110
0000000011010001
0001011100010010
1111111000011110
0000011010001101
1111111000110101
0000000111111011
1111001110000000
1111110000001100
0000011010010001
0000000011100111
0000111000111110
0000000001111000
1111111100110101
0000001010011011
1111111101110101
0001000000001011
1111110010010011
1111110001100011
1111111010000100
1111111100010100
0000000100100111
0000101010100110
1111010001111101
0000000110010001
1111110100001100
0000100100110010
1111101001111110
0000011001110010
1111011011100001
1111111101010110
0000010011011100
1111110101000100
1111010111010101
0000111110110100
0000101011000100
1111011101011010
1111110011101010
1111111110001000
0001010100011011
1111101011100100
1111000011000111
0000001001111101
0001000010111111
1111011001110011
0000010111001000
0000001010101100
0000111100111000
0001000011111100
1111000011001010
1111001111111000
0001001000011110
0000110100111111
0000101111000111
1111101101011100
1111110101111100
0000000110000101
1111010110110110
1111111110101111
1111001001010111
0000100011110100
0000000101001101
1111011001111001
0000011101011101
0000011111001100
1111101000101101
0000111000111101
0000010011010001
1111100001101110
0000000001001110
0000011001011101
0000100101000100
0001101010100110
0000010101011010
1111001110010001
0001101101000011
0000000011101111
0000000100111000
1111000000101111
0000010111001100
0000001010011000
1111110100100011
0000010000111110
0000000010101010
0000101110110001
0000001010111101
0000010010101000
0000111010101100
0000000000001100
0001001011011100
1110110101000001
1111111010000000
1111111000101110
0000011111000010
1111111000001000
1111000101110001
1110111100101110
1111100101111100
1111110010100100
0000010111011010
0001100000101001
1111110000100010
0001000001110100
0000100010011001
0001000101000001
1111011010010000
0000000001010111
0000011100111101
0000010111110100
1111100011001111
0000000010110110
1111111100010010
1111101000011110
1111011011111111
0000011000000011
0001000010100100
0000010100001100
0000100000000100
1111100111011110
1111100111001010
0000100110000101
1111111100010011
0000011110001101
0000101100101111
1111110000110111
0000001100111010
1111101010011100
0000100000100101
0000111010100000
0000100110101110
1111111000110011
1111110000001111
0000111010110011
0000010100011110
1111110111011111
1111101001110001
0000000111111001
0000110001010111
1111100010101111
0000000100011111
0000010110000100
1111101011100111
0000110000111100
0000001111100111
0000110101101001
0000101101000100
0000010100110010
0000110011101011
1111001100010011
0000100100001010
1111110011101111
1111100001100011
0000100110010110
0001010100111111
0000100001001010
0000010110100110
1110101001010100
1111111100101101
1111010111111001
0001101001101000
0000011000111100
1111111010010110
1111000111110101
0000100011111111
1111100011111011
1111110100111000
1111000101010100
0001001001000010
1111101000101000
0000001000010101
0000010011001100
1111111001111010
1111100010000100
0000101110111010
1111110110101111
0000010100000111
