1111001001110101
0000000000111000
0001000010001100
0000010110101101
1111010110000001
0001010000101111
0001001011010110
1111000100101100
1111111101011111
0000010000010000
0000011100100111
0000011100110010
0000111010011000
1111101110011000
1111011010100001
0000001111111111
0000010000011001
0000001101000010
0000000011100010
1111010110100110
1111001101000001
0000100001100001
1111001100010010
0000001111111011
0000000010111011
0001000000101100
0000100101111001
1110111101101001
1111101010010010
0000001011011101
0000100000111011
1111101001101011
0000111011100010
0001011110100101
0001001110110101
1111111111001000
0000010011010101
0000011100000101
0000110000111100
1111101101111000
0000000110011000
0001100010001011
0000000101000000
1111111100100110
0000100001001001
0000010000010111
0000100000101010
1111101100010101
0000101000111000
1111010110101111
0000000110101010
0000100010010111
0000001011001100
1111100111111010
1110111101111010
1111100111011010
0000001101010111
1111101000101001
0000101101100011
0000101001111000
0000010110101001
0000001100011000
0000101001001010
0000000110111101
0000100000000001
1111110111010001
1111100100101010
0001000101110011
1111011110111011
0000101000011000
1111001000101000
1111101011011011
0000011111000001
0000011111111001
0001001011011010
1111101001110111
0000001110000110
1111110110101101
1111001010100100
0000101010000100
1110111110000010
0000001111110101
1111110100111001
0000011111111011
1111010100010101
1111011101000010
0000111010111111
1111011110111010
1110110100010101
1110111111010111
0000101100010110
1111111011101101
1111011011011011
0000010000001000
0000011100000100
1111100110011011
1111101000010111
1111111111000000
1111100111110110
0000011110110010
0000010110001000
0000001101110001
0000001000110011
0000011010100011
1111001000000011
1111101001101111
0000010100100110
1111100010011001
1111011001100000
1111011101110010
1111000101100101
1111100101010100
0000000010010000
0000000001001001
1111010100100000
1111110010000000
1111110110001010
1111010101000100
0001001000111110
1111010011011001
1111111001110011
0000001110011000
1111000101111011
1111111111010111
1111101110000111
0000000011100010
0000101100100010
0000111111100000
0000011000100100
1111100011001111
0000011000000100
0000000101011000
1111010101100001
1111011010011010
1111101111101101
0000111001110010
1111110010001001
0000101101011001
1111101110101011
0000100001011100
1111001111110010
0001001011110110
1111001100100101
0000100100001001
0000001110010000
1111101001001011
1111110010001000
0001000100101001
1111110001010111
0000111111101001
1110111000010011
1111111110110011
0000000001001111
0000001110010101
1111011011011000
1111010101011000
1111111000011000
0000000111011110
1111100100011011
0000110110100001
1111111111000100
1111101000010011
1111011100100110
0000010011101010
1110110000010010
0000011110011100
0000001110010101
0000011011010101
1111010111110000
0000110001011100
0000011100011000
0000101000010011
1111100000111010
1111000000011011
0000011100100000
0000011000001001
1110110110011111
1111011100101100
0000010100000110
1110001001101001
0000011111111111
0000000011110000
0001001111110001
1111010111010011
0000001010010101
0000100010110100
1111101001111100
0000110110100010
0000000111110100
1111111010110100
0000010111000110
1101111100000111
0000110111110011
1111011001010111
0000001000101000
1111010011011011
1110110101010000
0000010111110101
0001001111001001
0000011101110111
1110111011111101
0000001011100101
0000110100111000
1111101010001000
1111101001100111
0000011001110110
1111111101011100
1111111110100101
0000000010000100
1111100010100101
1111101100011001
0000010100001111
1111010101100111
1111110010101001
0000101001101010
1111011011011011
1111001000101000
0000001100010110
0000010100010001
0000000100111101
1110111110010011
0000011111001000
0000011000011101
0000010011010000
1111111100001001
1111000010011110
1111001011100010
1111101000100000
1111010010110101
1111111110101011
1111100110010010
1111111000010000
0000101001000000
0000011011010010
0000001110101001
1111101000101101
1111011000010001
1111110101001000
1111001000001101
1111101001100010
1111111111001110
1111110000010001
0000100100101011
1111110000101000
0000000100010100
0001010110011101
1111010110010101
1110101011110111
0000000000001111
0000100111001010
1111100010111010
0000000101010111
1111010101111110
1110111010000100
1111110111011111
1111111111101111
0000000010110101
0000111000000001
0001000000100010
1111100100100001
1110100001010001
0000001000001011
0000100011100100
0000101011001111
1111011111110111
0000001100001000
0000010110010001
1111010011000000
0000001110001101
0000100000100101
1111100011101010
1111011100001111
1111010100100000
0000100001101010
1111001101101100
1111010010110000
0000010000011000
0000010100001110
0000100001100010
0000000110111110
1111100110011010
0000010001010010
0000101111111000
1111000100000110
1111100111010010
0000110001101010
1111111010010101
0000100110001011
1111101110101010
1111111011111111
0000011101000110
0000001110111010
0000010100100100
0000100100111101
1111101110000101
0000000011111100
0000001000111010
1111100111010011
0000001101100000
0000110010000110
1111010010000011
0000011101001011
1111111010010100
0000100001011001
1111101000100100
0000101001001101
1111111110010111
1111101001110001
1111110001110001
1110100111101100
1111100101100011
1111100010010110
1111101100010011
0000100001110010
0000001100101010
1111111100001010
0001000010001010
0000000000011101
1111101110110100
1111110111110001
0000010001110111
0000010110111001
1111101001111010
0000001101110001
0000110100010000
0000110001010001
0000010011101111
0000100001101110
1111000001111001
0000111111001000
0000011101100010
0000001000000101
1111100010010010
1111000100010001
1111000001111110
1111110110110111
1111001111111101
1111101011111110
1111110011010011
1111100000001001
1111101101001010
1110110001110111
0000010111010110
0000011011110011
0000100111000010
0000100010010101
0000000111000011
1111101101010111
1111000111001001
0000010101110111
1111010110011000
1111110010000010
1111111111011010
1111100110100011
1110101101111111
0000001110010000
0000001010000000
1111111100010101
1110111010111101
1111000110010111
0000111011000011
0000011001110011
0000100111110110
1111000000100011
0000011011111100
0000001100000110
0001000101101111
1111001101100101
0000000110011011
1111110101111110
1111011110110001
0000101000001111
1110101111011011
0000011000110011
1111011010000100
1111011111100100
1111000100010010
1110111110101100
0001001101111111
0000101001100010
1111111100000110
0000000000110101
1111011110111111
0000010101101010
0000011000110111
1111010011001010
1111010101101001
1111100000011000
1111110101001101
0000011011100010
0000001110001111
0001000101110111
0000010001011101
0000001100110110
0000110100101010
1111000100001110
1111101011110001
1111010000101000
0000100001101000
0000000111100010
1111100010110111
0000100110100110
0000100111000000
1111111000101010
0000000101111000
0000110111110101
0000000000011010
1110110110111101
1110110010001111
1111010100010001
0000110011001110
0000001011011101
0001010011011110
1111110010000110
1111100101011011
0000000001000111
0000001110100001
1111110111011000
1111011000010001
0000100001011101
1111101001110001
1111111101000101
0000111110010001
0000000010111010
0000011111001101
1111110011100001
1111101110001011
0000101110100110
1111110000010110
1111111101100001
1111010101010111
1111011100001101
0001010100111100
1111001010110100
1111011010000110
0000000110000001
1111101111011001
0000000101000110
0000110101101011
1110111000011101
0001000001011011
1111100110010010
0000000010010110
0000001001101100
1111111111011100
0000000000111010
1111110000100011
0000110101010100
1111111110001010
1111110111000100
1111110111000110
0000000000010011
0000100111100001
0000000011011011
0000001001011110
1111101001000111
0000000100111100
1111110010100111
0001001101100100
0000000111000001
0000000111110110
1111110000101011
1111110111010100
0000010100110101
0000110100011011
0001101111010101
0000110110011101
0000001001111011
1110110111001111
0000000001000101
1111011001010011
1111000100000111
1111110000011001
1111100010101101
0000001000110000
0000100101000111
0000000010100100
1111111100110010
1111111011001011
0000000011110100
1111110010101101
1111110111010000
1111111111011110
1110100101011001
0000011011110011
1111100010100100
1110110111110101
1111000010100000
1111100111100000
1111111101001101
0000100110100010
1111110011110110
1111101000000100
1111110101011010
0000010000000001
1111110010110010
0000010101111101
1111010101011100
1111100011100101
0000110001101101
0000100100000011
1110110011111001
1111111001011000
0000010010011101
1111101101001010
0000101010000100
0000100011000100
1111101110100011
0000100000000001
1111001101001100
0000010110010000
1111001110001000
