1111010011000100
0000001000110100
0000010110011100
0000010010110101
1111111110010011
0000001010001110
1111010000111110
1111110111000110
0000001000110011
0000011011000000
1111111110101101
0000010000111110
0001110000011011
0000001010110000
0000001001101010
1111011110010101
0000100111100010
0001000010101011
0001000100011111
1111000000000100
1111100000110111
1111001100110001
0000100100010001
1111111110111001
0000010100101001
1111011010000100
1111010010010110
0000011000001111
1111100100101001
0000110111110011
0000001001011000
1111101100101011
0000001010010110
0000000001011110
0000110110001101
0000010011001101
0000111000001000
1111011001000000
0000000011000110
1111010110101010
0000111000101011
1111011001101110
1111111001101001
1111111001000111
0000000100111000
0000011001011111
1111010110100111
0001011001101101
0000100110001100
1111011110101011
0000011111100101
0000101111100110
1111001110000000
1111110111100001
1111100110111010
1111101110001111
1111111110101011
1111010010000111
0000001011001111
0000100101001111
1111111110010011
0000101111110011
0000100001111010
0000100011100000
0001011001001000
0000011001011110
1111101011010001
0000000101000011
0000100110101110
0001001100100110
0000011111100001
1111111111100010
1111110000110001
0001100111000010
0000101101010010
0000011001110001
0000011110110110
0000010110011011
0000010110100100
0000011101000100
0000000111101110
1111111100100100
0000001000111111
0010010000000100
0001000011000010
0000100110110111
0000101110010111
1111101001110011
0001001001100100
0000011000101110
1111100101110101
0001000100011010
1111101001100010
1111001111100101
1111100100100100
0001001100100111
0000010000001001
1111111111010100
0000010110111010
0000000100111000
1111110000000110
0000001010111010
0000110011000110
0000110010000100
0000111000111011
1111110001100011
1111101001011010
0001011000101011
1111010001011011
1111000010011000
0000100000000110
1111011000101011
1111101000000111
1111101001000101
0000101100111010
0001001111100000
0000011111010000
1111011100111110
1111110110110101
0000001101000110
1111111011000110
1111010111101110
0001000100010000
0000011001001000
0000001100111111
1111110011001101
0000011010000110
1111100011100010
1111100111100101
0000010000001011
1111011100011011
0000011100000011
0000110010111000
1111111100011101
0000001101001000
0000010110110101
1111101111001111
0001000100100111
1110111110101010
1111100101110000
0000101001111010
0000011010011000
0000101011111011
0000110100010000
0000011001000111
0000101011100100
0000000000100001
0000110011101000
0000011000100010
1111001000111101
1111101101111110
1111100101111111
1110111011111010
0000001101110010
1110101100110101
1111100000000111
1111010100000111
0001001101101111
1111101011110000
0000110010110001
0000010011000100
1111111010000011
1111011100111110
0000111010010010
0000101010100110
1111110001110001
1111110110100011
0000001011111100
1111111101101001
1110111101100111
0001001000001010
0000001101010001
0000100010000011
0000101110001100
0000000100010000
1111110000010110
0000101100000000
0000010101110001
0000010101010010
0000000011011011
1111010010101001
1111110100110111
1111111110101000
1111111010001001
0000111000001100
1111010101111011
0001110011101100
0000001011010000
0000011010010101
1111111101100100
0000101010110110
0000001100000010
0000000101100000
1111111111001111
0000011110000000
0000001101111101
1111111011111111
1111010111101100
1111111111101111
0000110100010101
1111101100101010
0001001100111110
0000000110111001
1111101101010001
0000011100001101
0000111111101110
0000100011001111
0000011110111001
1111110000010000
0000011110011011
0000101110001011
0000101001000001
1111011010111001
0000001101001001
1111011001010111
0000010000111011
0000100101011010
0000110011011101
1111110011011000
0000110000001101
0000001100101010
0000000101100110
0000011100100100
1111110100110111
0000010111100101
0000010101001110
1111011101101111
0000001110001001
1111110000101110
0001010111011010
1111110111111101
0000000010011101
0000100110101110
0000101100101100
1111111001111001
0000100100110010
0000100100110011
0010001001010110
0000011010000101
1111100110100000
0010100001111010
1111100001100001
0000011110111001
1111001100100001
0000010010001101
1111101011111101
1111011101110100
0001011010000100
1111100001101110
0000000111001000
0000000110111010
1111011000101010
0000100000001000
0000100110010101
1111100011011000
0000010101000111
0000010001000011
0000110110110110
0000111001110100
1111000101000000
1111111011000001
1111011010000010
1111000111000100
0000111000100100
0000001001011100
1111101011010011
1111100101011011
0000000111110110
1111011100000010
1111010101001101
1111111010100111
1111011001011011
0000011010111101
1111100001110001
0000011000001100
0000111010001111
0001001110010111
0000111111010100
0000001010001011
0000100110001000
0000000110110010
0000001001001001
1111101000011011
0000011000000011
0000010111010000
1111110100000011
0000010101110011
1111110011111000
1111011001110101
0000010010010000
1111011001000110
1111111100111110
1110111000110010
0000010101010011
0000001101100101
0000000001100010
1111100010111101
0001011001011011
0000010111010110
0000011110111101
1111110101000010
0000000100110010
1110110010100101
1111101000010101
1111111101001011
0001000000001110
1111101111010000
0000010100010101
0000011100001101
0000010110010100
0000011110010001
0000001000001101
0000110000001000
1111110101010010
1111101100110101
1111011100101101
0000001101110101
0001111101011011
0000110110110011
0000101011011101
0000111001000110
0000111000100110
0000010100011110
1111011111111010
0000100110101101
0000101001001011
0000001010100100
0000110010100101
1111100000110011
1111100110100000
1111111100010111
0000010110001010
1111101011001100
0000100000011111
0000010101001111
0000101001010001
0000011001100111
1111011000011000
0000101101111110
0001010010000110
0001010010001101
1111110001010001
1111101111101010
0000111110110000
0000001111011011
1111011100000110
0000100001010000
0000000001100000
1111111101111001
0000001101111001
1111011110111111
0000100000010101
1111111110101101
1111111011010111
1111011000100011
1111101111010000
1111011111100010
1111000111000000
0000001010011111
0000100000100100
0000110110011111
0000010000111110
1111101111100111
0000111110001110
0001001111010000
0000010001111110
1111100101001001
0000101100010000
1111001001110000
0001011000101101
0001001010111111
0000010001010111
0000101011111010
1111110000111110
1111100110001001
0000001000011100
0000011110011110
0001010101101011
0000101011100000
0000101100001110
1111111100010000
0000010111110111
1111011001100110
0000010001101111
1111100001101110
1111010100110110
1111010100101100
0000000101101010
0000110011111100
0000100010110111
0000100010111000
1111010100101100
0001001001011110
0000011111100110
0000101101110011
1111101110010011
0000011111001101
0000001011010011
0000100101001100
0000000110110011
0000111000110000
0000000010110001
0000101111111100
0000111000110101
1111111101001100
1111110011101011
1111011000110100
0000101100010100
0001000011010000
1111111010000010
1111111011100111
0000000011110111
0000001100011001
1110110110010101
1111110110110101
0000100010010110
1111111110010001
0000111101100101
1111101110100011
0001101100011111
0000110100111011
1111100110000100
0001010001011001
0000110000110100
1111110010101000
0001001011001010
0000001110110001
0001000010010111
0000001100001101
1111110110101110
0001001110000100
0000110100001101
1111100110100001
0000100000001101
1111010011101011
0000100101001000
0000011001000100
1111100101000101
1111111111011110
0000001010100000
0000101010010101
1111001111101010
1111001101010001
0000001111110111
0001001110011111
1111100111101000
0000101000111011
1111111110111110
1110111000001100
1111101010001010
0000001010011110
0000110100011111
1111110101010100
1111100011111111
0000000100001111
0000011011000000
1111110101100001
1111111011010111
0000111001010101
0000111101011001
0000100001010011
0000010010001100
1111110111010101
0000000000011010
0000110010111110
1111100000110101
1111010111110011
0000010110111110
1111110101111011
0000111000110111
0000001011100111
1111010110101111
0001000001101010
1111110001011111
0000111101000011
1111100111010000
0000000111101101
0000001101001011
0001000000010011
0000001100101100
0000011001101110
0000011110111100
0000100011000111
1111100000111100
1111100010101010
0000100001101101
1111111011110100
0001001111000000
0000010101011111
0000100010101111
0000010010111010
0000010110101001
0000110010110011
0000110010110011
1111101001011100
0000100011000001
0000101110011010
0000001000001011
0000010110000100
0000001110010011
1111110101010111
1111110011000001
0000011010100011
0000011010000011
0001111010111101
1111011110101110
0000101001011101
0000000011011110
0000010011000000
1111001010110000
0000011011100111
1111110001110001
